0000000000000071FFE5CDA37FD7978E
000000000000000879DD5F8013D1B545
0000000000000001EDFCF07FF1FFF40D
00000000000000D334305A2080EB8745
0000000000000033EF09D5FB8003CFF3
00000000000000FEEE02FC7FF6FAD2F8
00000000000000F880F7165702F4020D
00000000000000FB41CD8BB82B3480F3
0000000000000080AB00093CD20ED39F
00000000000000E2EE10AC4403C180CE
00000000000000FB0501FEBDF2F67F0D
00000000000000060EF6A77FF201FDFE
000000000000001F815BE67FD4F8800D
00000000000000193EDB928BAE1F3080
000000000000008BAB80F90D42F02400
000000000000000AF906E67FA8ED60C6
1F29E222D3FB03F808DD1403012210EC
D33108E4FFDFE9D9A3CC360AE8052376
F7BEF00112034EF554F41FD923CAE4E8
D5C2DAE725171B0E2217052344B9D304
08EAA716F71217F31F0B2E27D9FEC3F3
FFF203FE03F1F702EBFEDEECF33BE30B
FCDFD5A8C41A11F1EDF80DD6F54BF1BD
1502C10CD51500F5CB1C01120908EA05
EAFEFB430F22E81247FB111509E6EC3A
CC4ED404E8EE6AFEFA2BEA00550EE5FC
C538E4DEF8B8EA1B210401E70F21E5DB
FCEBFA09EA080C1AEBF8EF0CF70D0D08
F3FF2A1407EF1C190ED8F7271A4DC6D9
EFC202B7945DE8FC1909E3FE28B6150A
05DDF107F3FA09F3E3E5ED0803F3FE16
FB080003EDFEF602E3FAFFF1070EF6F3
E600F7001E18EE0CF52DFAF0FE05E800
BAF92D0825EC28C7EAB3CD146117C01F
FCF823D0E30B100EFA06F2EBEB0BE61B
EAAF2A1726330B11F1E62CFF1309BBE4
12E90DDDE101020616C606130EF00D4B
E4F8FCDACAE50A0DF8F10BFECB6CBCFD
04F8221908060EF810FDBCD701D9051B
3613DCC60D1806BEEBF4FA2E0BEB2329
D7D54406E6B133083AEF16F0E766412E
28BE28E9FA16E304DA0AE6EC0829DA1A
DFE5F2E1DEDBE10F18E6C7CDFAE7D535
15E5EAE6FFEDEB2419732B05250EA2FE
29E1D4FA01F4ECF32B22DBD70EEBE915
F8FF08E80118A4AC36E1A0D9EDC6D740
1004E00EEB05050706D61415F3031108
030409F70B0607F90613FEF906EDFAF5
1C0B191317D7E2FA019DD1E70ECF051C
D1B7B22CC70A5ECEF9F6D730E3F9D5E3
2DE82104AC5D301F41091BDE15F8EDEA
E23004E1AC0237F335EE0F24ED12DD0E
F2DED3F4BF07EDF0CAD90B0BE608E0BC
F40E0AF6F6EC17F609300BD5CE21E709
C454F2271F29CBFDF72C4AD9F9060426
0610C11C1B0F1BED10F2FD261C050A1E
F3C8403DE60518230B721EC3CDA8ADDB
800AD042D9D612ED9D2DD52E400D06E9
1A00D14EC5DEFD673AE4067FD710470F
F6E512FFFC00F10B1C1CF5FF0AE9DFE4
F9E224E3E20DEBEDDBEC28FA09DD05D4
E0B8CA1DA827FFE71BEF0FDC070BAB6F
E80F0800FD1505FFF4FB060AED0C0BFD
FFFFFB03000502F20EF6020D00060A11
DDFD10FFD601F711FB0223F2EEFD27CB
2FF8430CEDAE01E90BE22C3D0CFDD118
47E2F5CD36DEC14333170009E7E6CCEC
DC22FB351EF1198033D2BBCCCD17D02E
BCB5FB09141FFF7F270717F11B04F7E2
E318E9043FEFED02DE3AEFE9E90FE8FE
CE2302F2EA51DED3CEDF2CE802B9C609
EBF0E940F8F6F0135B440DD6F23AE4FE
49EC0239E03EEB2010AFE002ECD6FC7F
38FE0E00EBEEA6B7588E2DDC291BD7CE
FF0CF8325EFBBE1E01E7440C4FF1F5F9
0DEEF903EB06E8D527E2D50F114BCA12
DC130FE8DFDF0EFBFBDEB904801D45F9
15CEEC51D5C445520341AA17C5304BFB
0FE10709800A1EF21C16DB0312F1E6EC
0C0AF601D9F5F2042AF8F8F20904F000
25D8080250FA25E9FC144DC8E547F208
1CAEC0E3C3240D7FC43270E90527F20D
13290D7F1CD8111FECEA0FF4FE21EA37
11E5F5E1D00EEEF3DA2122E40808F728
25E803231C2E1626DFE4E6EEF0F5C9F4
7BE9F1EDBF8F1A1CDA10CECC8F8042EC
F0041D14E77F08F65EEA44F55185E2EE
E60AF40021D8175B01544D301E7FC9D4
D10728DAD9E01D185EEAC4CEE5D1D20B
EFE93023DCF8301F16B42DF038F3EBF0
0406C71E2001C7D2D8CF0522DD02FFC1
B1112DF94AA34805F3CC9C0BD1642AFD
22C653C9FC1418FEF5E703143DEBE91B
28AEABC106280DB938F4236B3F3502C7
12F2F5FE0FFBE2FF02FD2EFADC171123
CF1B06061BFFFCEBF9FDE3F3E87FFAF0
CCFA10E6EC0C0710EDEE8014DBEF9A1F
709CCBC72E3F11F2EFC612D4F82AF11D
FBE8400E9E2113FE08E808C8ED2606F0
DA472100F8244323D028DB13F9F60FDE
1926F6BCCE0ED4EEF513F3F244DAE2F3
0E250123FAB105E3FBF1D0F4D5191308
DBA53F10DFCA40EDE10AB62729FAE1F7
F720E7EEF310E31104080FD72F36FB40
FA0B0EF41AB4F62AEF07C418000BA005
20CADD6A58DFFFFFECFAE4381465E2A2
052611DC13FF2404F4392E165CDC2D33
4142EFEEDC0C010015FA1015EE46F7F3
0C25FF2CE4FEAF131AFEEDD5D3BEEFBD
2C17E81E33CC16290011FE06EA1B1E1A
EE0D0EEE01FFF1FB26180AEF00E52103
1712EEEDF9051D06FBF915FE02E421FD
FFF2FCF2B60812241CF9FAF3FF3717F7
1ECF21CBD8E5E550DE13060BFD1B2BD7
FC36EEF8D14929EE18E6E10DE203CDCD
BDF3CAE407CC24F31DDEE42BDF2F4C04
0C18E84BBB4C02FD10C6F1FCD214D61C
F7EA151606E9F4FC0C093A47112303F8
3E3994E10A524A60DA1AF9DFC02DD5C1
0B1616D607D5E22A200AEE0DEF9FEC06
29B0FAC316EFE23D03E1FE21E12901F9
4D145B07DB4741BCC2561EC83A082F11
00EB41EC0DE5CA05ECEAFBC114D8C404
0B0BF413CFE820FAE3EB07040E1FFB06
043FF83FEC0C4E0FF50BC8F2F829AEFB
BD37E906E214B5DC20178BD42843C9BF
F8EF04EA2240F9FFF00202121ADDCEFA
0901FA0AFD11F804080005280307110B
0D09060E314C050CF8FE042502E30500
AC2AE43DBCC2101FF92B0F230BEBE309
13DB17091EE5E2CFF3D700FB2CBF93E8
0906E31BDDCCF2EB17EEE4161E09CA35
1432FF07E7B0FC34FD16F3232D0CE5E1
FFC7FE0E1B1B18FF2C1F2DEC331615EF
2EEA3AF1DA1A3CF20607EC16300BFE0E
AC291C0E17AE190EFDD5C00BDBF2BBF6
FFF325320141DCDBE6DB4134FDF202F5
000D29433910120411BF3330F713E2E4
BCF9FAD9D4E0B6CFE13826EC01F1DCE3
C310EEFA017FF421ED045E0411CD1428
03DC35F0A9E20B0605E5ECEDFB11010F
DCD6FED405FE090A2A22D0652CBBD4E3
1B05F7F9FF0808FADDFEF20C08141310
F80EE8F6FF1C0811FBFE0A0B03F61C0B
D40D1EFE08EBFDF025F3F218EFF2AE01
1D37DE120003085111C004C9C9DAC5C0
FEF8C0CBBD391CFC3AE7FEC04DB6F411
E537E2E1F3B820F3F3031DF2FAD0CAD8
F1D028F1D00B20F5E1CBFB230747F60D
CFF1F4EE171114D8FAF8451418C1D6F3
17300714CAD3F5EC111E03F431ECCF51
E0EE3023FABEEB01EFD2EEE620E9BC20
6D1725151E03BFF418C00AB7F100F3D9
E223F714C9E1ACFCFAE4C7D7F0D8FA00
F1D5482B48E8002C01C47CBD14E0AB29
1307F5FF000D1518E1FAFCFAFEFD1AEC
0409ADFEDBDEEB0356FEFA1AF4C624B7
C102363FDCFD4C0FEADFF480392EC8E0
E00B0602FA27FCF9F5F8FB13010DEEFA
F801F2F60900F1E70501F5F9FFF6EA11
F206FD02FB0D0300F40CE901FCFB0006
E0101D0434F5FAFFFFF7F9F5F6090EEC
E2EB13F111D112172C052DF0FF120107
FCF8E5F40619F1ED020213FDFBE5ED01
00000000000000000000000000000000
00000000000000000000000000000000
00000000000000000000000000000000
00000000000000000000000000000000
00000000000000000000000000000000
00000000000000000000000000000000
00000000000000000000000000000000
00000000000000000000000000000000
00000000000000000000000000000000
00000000000000000000000000000000
00000000000000000000000000000000
00000000000000000000000000000000
2526FCFFEAF8F400E4F6FB20070906F2
FF0E0316BC0D05F7F508CD120FDC0314
BFF1EEDF601DFD0DEAEA33F7FAF7F9F9
CBEDEA013804100602E719F4F506F103
00000000000000000000000000000000
00000000000000000000000000000000
00000000000000000000000000000000
00000000000000000000000000000000
00000000000000000000000000000000
00000000000000000000000000000000
00000000000000000000000000000000
00000000000000000000000000000000
00000000000000000000000000000000
00000000000000000000000000000000
00000000000000000000000000000000
00000000000000000000000000000000
E8F2F30F0BF506F509FD000CF4ECF604
2B05F41DF4E6EB15DBF61E041AFA1700
E7FDE2FA04160B06F9DEE0DFF600EDFE
F2F506000711F305FB070700F8000A02
00000000000000000000000000000000
00000000000000000000000000000000
00000000000000000000000000000000
00000000000000000000000000000000
00000000000000000000000000000000
00000000000000000000000000000000
00000000000000000000000000000000
00000000000000000000000000000000
00000000000000000000000000000000
00000000000000000000000000000000
00000000000000000000000000000000
00000000000000000000000000000000
19DFF4F0F1FDF003EB1D35F506FB001C
AE16F7EF5100EDF70008E8FE151110DC
260DFE09C10025DB0F1ADB05FF11DA12
D520E50B39FAF1F210FFE0F202EFE7D4
00000000000000000000000000000000
00000000000000000000000000000000
00000000000000000000000000000000
00000000000000000000000000000000
00000000000000000000000000000000
00000000000000000000000000000000
00000000000000000000000000000000
00000000000000000000000000000000
00000000000000000000000000000000
00000000000000000000000000000000
00000000000000000000000000000000
00000000000000000000000000000000
65110BF27FFFF906DA1007F2FEFF07C3
139E01FF09F914FCC30D7F020B07F237
325F13E3C4FFE5EF1A14A60A0307FAC1
D9FA1106800C120306F1DE0F0DE0FB2A
00000000000000000000000000000000
00000000000000000000000000000000
00000000000000000000000000000000
00000000000000000000000000000000
00000000000000000000000000000000
00000000000000000000000000000000
00000000000000000000000000000000
00000000000000000000000000000000
00000000000000000000000000000000
00000000000000000000000000000000
00000000000000000000000000000000
00000000000000000000000000000000
95DDF40D0E0C04FE04000817F9F4F813
651600EF31020F07F9F1E416F60B02EA
80D2262A0108F31611EE2800E102F51F
3B1EFAEBF109FC000F02FCF3050700F6
00000000000000000000000000000000
00000000000000000000000000000000
00000000000000000000000000000000
00000000000000000000000000000000
00000000000000000000000000000000
00000000000000000000000000000000
00000000000000000000000000000000
00000000000000000000000000000000
00000000000000000000000000000000
00000000000000000000000000000000
00000000000000000000000000000000
00000000000000000000000000000000
0A0B071AF6FEE809F501F505F20205FB
1803220EE7EFE717EDF50713060306F0
1CF01A1101F4021208F21D0611F6FF0B
F1040DEC0CFFF2F40603FEF7FCF2ECFA
00000000000000000000000000000000
00000000000000000000000000000000
00000000000000000000000000000000
00000000000000000000000000000000
00000000000000000000000000000000
00000000000000000000000000000000
00000000000000000000000000000000
00000000000000000000000000000000
00000000000000000000000000000000
00000000000000000000000000000000
00000000000000000000000000000000
00000000000000000000000000000000
A70B0300DE00091507E9E6F5F317F50C
961000FFDF06FFF30BFCE0E206DD1D01
4EFFFA1136F00208FF29F921080DE3F8
1BE31214030DF80800F61EE7EC08130D
00000000000000000000000000000000
00000000000000000000000000000000
00000000000000000000000000000000
00000000000000000000000000000000
00000000000000000000000000000000
00000000000000000000000000000000
00000000000000000000000000000000
00000000000000000000000000000000
00000000000000000000000000000000
00000000000000000000000000000000
00000000000000000000000000000000
00000000000000000000000000000000
E2F80AF803F805FA03FB1BF6050BEE02
E405FF27F807F0E802FA0B24070C0402
D8E7E2E818FB19E303011EFFE7F70602
2CFEF7021C021004FDF102EE0F05FBF8
00000000000000000000000000000000
00000000000000000000000000000000
00000000000000000000000000000000
00000000000000000000000000000000
00000000000000000000000000000000
00000000000000000000000000000000
00000000000000000000000000000000
00000000000000000000000000000000
00000000000000000000000000000000
00000000000000000000000000000000
00000000000000000000000000000000
00000000000000000000000000000000
