F206FD02FB0D0300F40CE901FCFB0006
E0101D0434F5FAFFFFF7F9F5F6090EEC
E2EB13F111D112172C052DF0FF120107
FCF8E5F40619F1ED020213FDFBE5ED01
00000000000000000000000000000000
00000000000000000000000000000000
00000000000000000000000000000000
00000000000000000000000000000000
00000000000000000000000000000000
00000000000000000000000000000000
00000000000000000000000000000000
00000000000000000000000000000000
00000000000000000000000000000000
00000000000000000000000000000000
00000000000000000000000000000000
00000000000000000000000000000000
2526FCFFEAF8F400E4F6FB20070906F2
FF0E0316BC0D05F7F508CD120FDC0314
BFF1EEDF601DFD0DEAEA33F7FAF7F9F9
CBEDEA013804100602E719F4F506F103
00000000000000000000000000000000
00000000000000000000000000000000
00000000000000000000000000000000
00000000000000000000000000000000
00000000000000000000000000000000
00000000000000000000000000000000
00000000000000000000000000000000
00000000000000000000000000000000
00000000000000000000000000000000
00000000000000000000000000000000
00000000000000000000000000000000
00000000000000000000000000000000
E8F2F30F0BF506F509FD000CF4ECF604
2B05F41DF4E6EB15DBF61E041AFA1700
E7FDE2FA04160B06F9DEE0DFF600EDFE
F2F506000711F305FB070700F8000A02
00000000000000000000000000000000
00000000000000000000000000000000
00000000000000000000000000000000
00000000000000000000000000000000
00000000000000000000000000000000
00000000000000000000000000000000
00000000000000000000000000000000
00000000000000000000000000000000
00000000000000000000000000000000
00000000000000000000000000000000
00000000000000000000000000000000
00000000000000000000000000000000
19DFF4F0F1FDF003EB1D35F506FB001C
AE16F7EF5100EDF70008E8FE151110DC
260DFE09C10025DB0F1ADB05FF11DA12
D520E50B39FAF1F210FFE0F202EFE7D4
00000000000000000000000000000000
00000000000000000000000000000000
00000000000000000000000000000000
00000000000000000000000000000000
00000000000000000000000000000000
00000000000000000000000000000000
00000000000000000000000000000000
00000000000000000000000000000000
00000000000000000000000000000000
00000000000000000000000000000000
00000000000000000000000000000000
00000000000000000000000000000000
65110BF27FFFF906DA1007F2FEFF07C3
139E01FF09F914FCC30D7F020B07F237
325F13E3C4FFE5EF1A14A60A0307FAC1
D9FA1106800C120306F1DE0F0DE0FB2A
00000000000000000000000000000000
00000000000000000000000000000000
00000000000000000000000000000000
00000000000000000000000000000000
00000000000000000000000000000000
00000000000000000000000000000000
00000000000000000000000000000000
00000000000000000000000000000000
00000000000000000000000000000000
00000000000000000000000000000000
00000000000000000000000000000000
00000000000000000000000000000000
95DDF40D0E0C04FE04000817F9F4F813
651600EF31020F07F9F1E416F60B02EA
80D2262A0108F31611EE2800E102F51F
3B1EFAEBF109FC000F02FCF3050700F6
00000000000000000000000000000000
00000000000000000000000000000000
00000000000000000000000000000000
00000000000000000000000000000000
00000000000000000000000000000000
00000000000000000000000000000000
00000000000000000000000000000000
00000000000000000000000000000000
00000000000000000000000000000000
00000000000000000000000000000000
00000000000000000000000000000000
00000000000000000000000000000000
0A0B071AF6FEE809F501F505F20205FB
1803220EE7EFE717EDF50713060306F0
1CF01A1101F4021208F21D0611F6FF0B
F1040DEC0CFFF2F40603FEF7FCF2ECFA
00000000000000000000000000000000
00000000000000000000000000000000
00000000000000000000000000000000
00000000000000000000000000000000
00000000000000000000000000000000
00000000000000000000000000000000
00000000000000000000000000000000
00000000000000000000000000000000
00000000000000000000000000000000
00000000000000000000000000000000
00000000000000000000000000000000
00000000000000000000000000000000
A70B0300DE00091507E9E6F5F317F50C
961000FFDF06FFF30BFCE0E206DD1D01
4EFFFA1136F00208FF29F921080DE3F8
1BE31214030DF80800F61EE7EC08130D
00000000000000000000000000000000
00000000000000000000000000000000
00000000000000000000000000000000
00000000000000000000000000000000
00000000000000000000000000000000
00000000000000000000000000000000
00000000000000000000000000000000
00000000000000000000000000000000
00000000000000000000000000000000
00000000000000000000000000000000
00000000000000000000000000000000
00000000000000000000000000000000
E2F80AF803F805FA03FB1BF6050BEE02
E405FF27F807F0E802FA0B24070C0402
D8E7E2E818FB19E303011EFFE7F70602
2CFEF7021C021004FDF102EE0F05FBF8
00000000000000000000000000000000
00000000000000000000000000000000
00000000000000000000000000000000
00000000000000000000000000000000
00000000000000000000000000000000
00000000000000000000000000000000
00000000000000000000000000000000
00000000000000000000000000000000
00000000000000000000000000000000
00000000000000000000000000000000
00000000000000000000000000000000
00000000000000000000000000000000
