0000000000000071FFE5CDA37FD7978E
000000000000000879DD5F8013D1B545
0000000000000001EDFCF07FF1FFF40D
00000000000000D334305A2080EB8745
0000000000000033EF09D5FB8003CFF3
00000000000000FEEE02FC7FF6FAD2F8
00000000000000F880F7165702F4020D
00000000000000FB41CD8BB82B3480F3
0000000000000080AB00093CD20ED39F
00000000000000E2EE10AC4403C180CE
00000000000000FB0501FEBDF2F67F0D
00000000000000060EF6A77FF201FDFE
000000000000001F815BE67FD4F8800D
00000000000000193EDB928BAE1F3080
000000000000008BAB80F90D42F02400
000000000000000AF906E67FA8ED60C6
